{
 "char2idx": {
  "<PAD>": 0,
  "<UNK>": 1,
  "E": 2,
  "L": 3,
  "X": 4,
  "a": 5,
  "b": 6,
  "d": 7,
  "e": 8,
  "f": 9,
  "i": 10,
  "j": 11,
  "k": 12,
  "l": 13,
  "m": 14,
  "n": 15,
  "o": 16,
  "p": 17,
  "s": 18,
  "t": 19,
  "u": 20,
  "v": 21,
  "w": 22,
  "y": 23,
  "z": 24,
  "ø": 25,
  "ŋ": 26,
  "œ": 27,
  "ɑ": 28,
  "ɔ": 29,
  "ə": 30,
  "ɛ": 31,
  "ɡ": 32,
  "ɥ": 33,
  "ɲ": 34,
  "ʁ": 35,
  "ʃ": 36,
  "ʒ": 37,
  "̃": 38
 },
 "idx2label": {
  "0": "<PAD>",
  "1": "'",
  "2": "'a",
  "3": "'c",
  "4": "'d",
  "5": "'e",
  "6": "'f",
  "7": "'g",
  "8": "'h",
  "9": "'ho",
  "10": "'i",
  "11": "'k",
  "12": "'l",
  "13": "'m",
  "14": "'n",
  "15": "'o",
  "16": "'p",
  "17": "'q",
  "18": "'r",
  "19": "'s",
  "20": "'t",
  "21": "'u",
  "22": "'y",
  "23": "'z",
  "24": "'à",
  "25": "'â",
  "26": "'é",
  "27": "'ê",
  "28": "'í",
  "29": "'î",
  "30": "'ô",
  "31": "'œ",
  "32": "-",
  "33": "-'",
  "34": "-a",
  "35": "-b",
  "36": "-c",
  "37": "-ch",
  "38": "-co",
  "39": "-d",
  "40": "-d'",
  "41": "-de",
  "42": "-e",
  "43": "-f",
  "44": "-fe",
  "45": "-g",
  "46": "-gr",
  "47": "-h",
  "48": "-ha",
  "49": "-ho",
  "50": "-i",
  "51": "-j",
  "52": "-k",
  "53": "-l",
  "54": "-lo",
  "55": "-m",
  "56": "-n",
  "57": "-o",
  "58": "-p",
  "59": "-q",
  "60": "-r",
  "61": "-s",
  "62": "-t",
  "63": "-te",
  "64": "-u",
  "65": "-un",
  "66": "-v",
  "67": "-w",
  "68": "-y",
  "69": "-à",
  "70": "-â",
  "71": "-é",
  "72": ".",
  "73": "_CONT",
  "74": "a",
  "75": "a'",
  "76": "a-",
  "77": "a.",
  "78": "aa",
  "79": "ab",
  "80": "ac",
  "81": "ach",
  "82": "acq",
  "83": "actinomycose",
  "84": "ad",
  "85": "adiers",
  "86": "ae",
  "87": "af",
  "88": "ag",
  "89": "age",
  "90": "agu",
  "91": "ah",
  "92": "aha",
  "93": "ahs",
  "94": "ai",
  "95": "aic",
  "96": "aid",
  "97": "aie",
  "98": "aient",
  "99": "aies",
  "100": "aig",
  "101": "ail",
  "102": "aim",
  "103": "ain",
  "104": "ais",
  "105": "ait",
  "106": "aix",
  "107": "aj",
  "108": "ak",
  "109": "al",
  "110": "alié",
  "111": "am",
  "112": "amp",
  "113": "an",
  "114": "anale",
  "115": "anc",
  "116": "and",
  "117": "ang",
  "118": "ann",
  "119": "ans",
  "120": "ant",
  "121": "anç",
  "122": "ao",
  "123": "aon",
  "124": "aou",
  "125": "aout",
  "126": "aouts",
  "127": "aoûts",
  "128": "ap",
  "129": "app",
  "130": "aq",
  "131": "aqu",
  "132": "ar",
  "133": "arbonne",
  "134": "arr",
  "135": "ars",
  "136": "as",
  "137": "asi",
  "138": "ass",
  "139": "ast",
  "140": "at",
  "141": "at-",
  "142": "ata",
  "143": "ateur",
  "144": "ati",
  "145": "aton",
  "146": "ats",
  "147": "att",
  "148": "au",
  "149": "aub",
  "150": "auc",
  "151": "aud",
  "152": "aue",
  "153": "auf",
  "154": "aug",
  "155": "aul",
  "156": "aulx",
  "157": "aum",
  "158": "aun",
  "159": "aus",
  "160": "aut",
  "161": "aux",
  "162": "av",
  "163": "aw",
  "164": "awe",
  "165": "ax",
  "166": "ay",
  "167": "aye",
  "168": "az",
  "169": "aâ",
  "170": "aç",
  "171": "aè",
  "172": "aé",
  "173": "aë",
  "174": "aî",
  "175": "aîn",
  "176": "aï",
  "177": "aô",
  "178": "aû",
  "179": "aü",
  "180": "b",
  "181": "b'",
  "182": "b-",
  "183": "ba",
  "184": "bastimens",
  "185": "bau",
  "186": "bb",
  "187": "bc",
  "188": "bd",
  "189": "be",
  "190": "bec",
  "191": "beq",
  "192": "bes",
  "193": "beu",
  "194": "bf",
  "195": "bh",
  "196": "bi",
  "197": "bj",
  "198": "bk",
  "199": "bl",
  "200": "bm",
  "201": "bn",
  "202": "bo",
  "203": "bou",
  "204": "bq",
  "205": "br",
  "206": "bre",
  "207": "bs",
  "208": "bt",
  "209": "bu",
  "210": "buc",
  "211": "buv",
  "212": "buve",
  "213": "bv",
  "214": "by",
  "215": "bz",
  "216": "bâ",
  "217": "bè",
  "218": "bé",
  "219": "bê",
  "220": "bî",
  "221": "bô",
  "222": "bû",
  "223": "bœ",
  "224": "bœuf",
  "225": "c",
  "226": "c'",
  "227": "c-",
  "228": "ca",
  "229": "cai",
  "230": "cara",
  "231": "cb",
  "232": "cc",
  "233": "cd",
  "234": "ce",
  "235": "cei",
  "236": "ces",
  "237": "cf",
  "238": "cg",
  "239": "ch",
  "240": "cha",
  "241": "che",
  "242": "chi",
  "243": "cho",
  "244": "chs",
  "245": "cht",
  "246": "châ",
  "247": "ci",
  "248": "citaire",
  "249": "ck",
  "250": "cka",
  "251": "cke",
  "252": "cl",
  "253": "cm",
  "254": "cn",
  "255": "co",
  "256": "con",
  "257": "cons",
  "258": "cou",
  "259": "cp",
  "260": "cq",
  "261": "cqu",
  "262": "cr",
  "263": "cro",
  "264": "cs",
  "265": "ct",
  "266": "cts",
  "267": "ctuaire",
  "268": "cu",
  "269": "cue",
  "270": "cy",
  "271": "cz",
  "272": "câ",
  "273": "cè",
  "274": "cé",
  "275": "cê",
  "276": "cî",
  "277": "cô",
  "278": "cû",
  "279": "cœ",
  "280": "d",
  "281": "d'",
  "282": "d'g",
  "283": "d-",
  "284": "da",
  "285": "dai",
  "286": "dau",
  "287": "db",
  "288": "dc",
  "289": "dd",
  "290": "de",
  "291": "de-",
  "292": "der",
  "293": "des",
  "294": "deu",
  "295": "dez",
  "296": "dg",
  "297": "dh",
  "298": "di",
  "299": "dj",
  "300": "dk",
  "301": "dl",
  "302": "dm",
  "303": "dn",
  "304": "do",
  "305": "don",
  "306": "dou",
  "307": "dp",
  "308": "dr",
  "309": "ds",
  "310": "dt",
  "311": "du",
  "312": "dv",
  "313": "dw",
  "314": "dy",
  "315": "dz",
  "316": "dâ",
  "317": "dât",
  "318": "dè",
  "319": "dé",
  "320": "déb",
  "321": "débe",
  "322": "débeq",
  "323": "dér",
  "324": "dérus",
  "325": "dê",
  "326": "dî",
  "327": "dô",
  "328": "dû",
  "329": "dœ",
  "330": "e",
  "331": "e'",
  "332": "e-",
  "333": "e-b",
  "334": "e-c",
  "335": "e-e",
  "336": "e-h",
  "337": "e-p",
  "338": "ea",
  "339": "eai",
  "340": "eas",
  "341": "eau",
  "342": "eaux",
  "343": "eb",
  "344": "ebe",
  "345": "ec",
  "346": "eck",
  "347": "ecq",
  "348": "ed",
  "349": "eds",
  "350": "edt",
  "351": "ee",
  "352": "ef",
  "353": "efe",
  "354": "eff",
  "355": "eg",
  "356": "eh",
  "357": "ehn",
  "358": "ei",
  "359": "eid",
  "360": "eig",
  "361": "eil",
  "362": "ein",
  "363": "eins",
  "364": "ej",
  "365": "ek",
  "366": "el",
  "367": "eli",
  "368": "ell",
  "369": "elliers",
  "370": "elu",
  "371": "em",
  "372": "eme",
  "373": "en",
  "374": "ena",
  "375": "enc",
  "376": "ench",
  "377": "end",
  "378": "eng",
  "379": "enh",
  "380": "ens",
  "381": "ent",
  "382": "eo",
  "383": "ep",
  "384": "epo",
  "385": "eq",
  "386": "equ",
  "387": "eque",
  "388": "er",
  "389": "era",
  "390": "erai",
  "391": "erez",
  "392": "eri",
  "393": "err",
  "394": "ers",
  "395": "es",
  "396": "es-",
  "397": "esc",
  "398": "esca",
  "399": "esm",
  "400": "ess",
  "401": "essi",
  "402": "est",
  "403": "et",
  "404": "eta",
  "405": "etai",
  "406": "etas",
  "407": "etez",
  "408": "eth",
  "409": "eti",
  "410": "eto",
  "411": "ets",
  "412": "ett",
  "413": "etâ",
  "414": "etât",
  "415": "eté",
  "416": "eu",
  "417": "euc",
  "418": "eud",
  "419": "eue",
  "420": "eues",
  "421": "eug",
  "422": "euh",
  "423": "eui",
  "424": "eul",
  "425": "eur",
  "426": "eus",
  "427": "eut",
  "428": "eux",
  "429": "ev",
  "430": "evi",
  "431": "ew",
  "432": "ex",
  "433": "exoc",
  "434": "ext",
  "435": "exta",
  "436": "ey",
  "437": "eys",
  "438": "ez",
  "439": "eâ",
  "440": "eât",
  "441": "eå",
  "442": "eç",
  "443": "eî",
  "444": "eï",
  "445": "eô",
  "446": "eû",
  "447": "eûl",
  "448": "eût",
  "449": "eü",
  "450": "f",
  "451": "f'",
  "452": "f-",
  "453": "fa",
  "454": "fai",
  "455": "fb",
  "456": "fe",
  "457": "fei",
  "458": "fent",
  "459": "fes",
  "460": "fet",
  "461": "feu",
  "462": "ff",
  "463": "ffa",
  "464": "ffe",
  "465": "fff",
  "466": "fg",
  "467": "fh",
  "468": "fi",
  "469": "fk",
  "470": "fl",
  "471": "flet",
  "472": "flè",
  "473": "fo",
  "474": "fou",
  "475": "fr",
  "476": "frog",
  "477": "fré",
  "478": "fs",
  "479": "ft",
  "480": "fu",
  "481": "furlongs",
  "482": "fy",
  "483": "fâ",
  "484": "fè",
  "485": "fé",
  "486": "fê",
  "487": "fî",
  "488": "fû",
  "489": "g",
  "490": "g'",
  "491": "g-",
  "492": "ga",
  "493": "gai",
  "494": "gamp",
  "495": "gan",
  "496": "gas",
  "497": "gb",
  "498": "gc",
  "499": "gd",
  "500": "ge",
  "501": "gea",
  "502": "gei",
  "503": "gel",
  "504": "gen",
  "505": "ger",
  "506": "ges",
  "507": "get",
  "508": "geti",
  "509": "geu",
  "510": "gez",
  "511": "gf",
  "512": "gg",
  "513": "gge",
  "514": "gh",
  "515": "gi",
  "516": "gin",
  "517": "gj",
  "518": "gk",
  "519": "gl",
  "520": "gle",
  "521": "glosse",
  "522": "gm",
  "523": "gn",
  "524": "gna",
  "525": "gne",
  "526": "go",
  "527": "gog",
  "528": "gon",
  "529": "gong",
  "530": "goth",
  "531": "goths",
  "532": "gou",
  "533": "gow",
  "534": "gp",
  "535": "gr",
  "536": "gre",
  "537": "gs",
  "538": "gs-",
  "539": "gt",
  "540": "gts",
  "541": "gu",
  "542": "gua",
  "543": "gue",
  "544": "gui",
  "545": "guin",
  "546": "gué",
  "547": "gv",
  "548": "gw",
  "549": "gx",
  "550": "gy",
  "551": "gz",
  "552": "gâ",
  "553": "gât",
  "554": "gæ",
  "555": "gè",
  "556": "gé",
  "557": "génio",
  "558": "gê",
  "559": "gî",
  "560": "gô",
  "561": "gö",
  "562": "gü",
  "563": "gœ",
  "564": "h",
  "565": "h'",
  "566": "h-",
  "567": "ha",
  "568": "ha'",
  "569": "hac",
  "570": "hae",
  "571": "hai",
  "572": "haie",
  "573": "haient",
  "574": "haies",
  "575": "haim",
  "576": "haims",
  "577": "hain",
  "578": "hains",
  "579": "hais",
  "580": "hait",
  "581": "hal",
  "582": "han",
  "583": "hanc",
  "584": "hap",
  "585": "hapchot",
  "586": "har",
  "587": "has",
  "588": "hat",
  "589": "hato",
  "590": "hau",
  "591": "haus",
  "592": "haut",
  "593": "hav",
  "594": "hay",
  "595": "hb",
  "596": "hc",
  "597": "hd",
  "598": "he",
  "599": "hea",
  "600": "heath",
  "601": "hei",
  "602": "hein",
  "603": "hel",
  "604": "hem",
  "605": "hen",
  "606": "hent",
  "607": "her",
  "608": "hes",
  "609": "het",
  "610": "heu",
  "611": "heyd",
  "612": "hez",
  "613": "hf",
  "614": "hg",
  "615": "hh",
  "616": "hi",
  "617": "hia",
  "618": "hie",
  "619": "hient",
  "620": "hies",
  "621": "hin",
  "622": "his",
  "623": "hj",
  "624": "hk",
  "625": "hl",
  "626": "hla",
  "627": "hle",
  "628": "hli",
  "629": "hm",
  "630": "hmo",
  "631": "hn",
  "632": "hno",
  "633": "ho",
  "634": "hoc",
  "635": "hog",
  "636": "hoh",
  "637": "hol",
  "638": "hom",
  "639": "hon",
  "640": "hot",
  "641": "hou",
  "642": "houe",
  "643": "houes",
  "644": "houi",
  "645": "houp",
  "646": "hous",
  "647": "houx",
  "648": "how",
  "649": "hp",
  "650": "hq",
  "651": "hr",
  "652": "hs",
  "653": "ht",
  "654": "hu",
  "655": "hua",
  "656": "huc",
  "657": "hue",
  "658": "huent",
  "659": "hues",
  "660": "hun",
  "661": "huns",
  "662": "hure",
  "663": "hut",
  "664": "hv",
  "665": "hw",
  "666": "hy",
  "667": "hyp",
  "668": "há",
  "669": "hâ",
  "670": "hâ'",
  "671": "hâl",
  "672": "hât",
  "673": "hã",
  "674": "hæ",
  "675": "hè",
  "676": "hèl",
  "677": "hès",
  "678": "hé",
  "679": "hée",
  "680": "hés",
  "681": "hê",
  "682": "hês",
  "683": "hí",
  "684": "hî",
  "685": "hô",
  "686": "hôl",
  "687": "hû",
  "688": "hü",
  "689": "hœ",
  "690": "i",
  "691": "i'",
  "692": "i-",
  "693": "ia",
  "694": "iai",
  "695": "ian",
  "696": "ib",
  "697": "ic",
  "698": "icaire",
  "699": "icel",
  "700": "icell",
  "701": "ich",
  "702": "id",
  "703": "ide",
  "704": "ids",
  "705": "idé",
  "706": "ie",
  "707": "ien",
  "708": "ient",
  "709": "ier",
  "710": "iers",
  "711": "ies",
  "712": "iet",
  "713": "ieu",
  "714": "iez",
  "715": "if",
  "716": "iff",
  "717": "ifi",
  "718": "ig",
  "719": "ige",
  "720": "igh",
  "721": "ign",
  "722": "ih",
  "723": "ii",
  "724": "ij",
  "725": "ik",
  "726": "il",
  "727": "ilis",
  "728": "ilisa",
  "729": "ill",
  "730": "illa",
  "731": "ille",
  "732": "ils",
  "733": "im",
  "734": "imp",
  "735": "implan",
  "736": "ims",
  "737": "in",
  "738": "inc",
  "739": "ind",
  "740": "ine",
  "741": "ing",
  "742": "ingvaeonique",
  "743": "inn",
  "744": "inq",
  "745": "ins",
  "746": "int",
  "747": "iny",
  "748": "io",
  "749": "ion",
  "750": "ions",
  "751": "ip",
  "752": "iq",
  "753": "iqu",
  "754": "ique",
  "755": "ir",
  "756": "ire",
  "757": "ires",
  "758": "is",
  "759": "isa",
  "760": "isc",
  "761": "ise",
  "762": "iser",
  "763": "iss",
  "764": "it",
  "765": "ite",
  "766": "itox",
  "767": "its",
  "768": "itt",
  "769": "itu",
  "770": "itue",
  "771": "ituée",
  "772": "itués",
  "773": "iu",
  "774": "iv",
  "775": "iw",
  "776": "ix",
  "777": "iy",
  "778": "iz",
  "779": "iâ",
  "780": "iç",
  "781": "iè",
  "782": "ière",
  "783": "ières",
  "784": "ié",
  "785": "iô",
  "786": "iœ",
  "787": "j",
  "788": "j'",
  "789": "ja",
  "790": "jai",
  "791": "jarnysien",
  "792": "jau",
  "793": "jb",
  "794": "je",
  "795": "jh",
  "796": "ji",
  "797": "jj",
  "798": "jk",
  "799": "jl",
  "800": "jo",
  "801": "jon",
  "802": "jou",
  "803": "jr",
  "804": "js",
  "805": "ju",
  "806": "jà",
  "807": "jâ",
  "808": "jé",
  "809": "jô",
  "810": "k",
  "811": "k-",
  "812": "ka",
  "813": "kai",
  "814": "kb",
  "815": "kc",
  "816": "kd",
  "817": "ke",
  "818": "kent",
  "819": "kes",
  "820": "kf",
  "821": "kg",
  "822": "kh",
  "823": "kho",
  "824": "khs",
  "825": "ki",
  "826": "kj",
  "827": "kk",
  "828": "kl",
  "829": "km",
  "830": "kn",
  "831": "ko",
  "832": "kp",
  "833": "kpi",
  "834": "kr",
  "835": "ks",
  "836": "kt",
  "837": "ku",
  "838": "kw",
  "839": "ky",
  "840": "kâ",
  "841": "kè",
  "842": "ké",
  "843": "kî",
  "844": "l",
  "845": "l'",
  "846": "l-",
  "847": "la",
  "848": "lai",
  "849": "lan",
  "850": "lant",
  "851": "las",
  "852": "lat",
  "853": "lb",
  "854": "lc",
  "855": "ld",
  "856": "le",
  "857": "lem",
  "858": "len",
  "859": "lent",
  "860": "ler",
  "861": "les",
  "862": "let",
  "863": "leu",
  "864": "lez",
  "865": "lf",
  "866": "lg",
  "867": "lh",
  "868": "li",
  "869": "lin",
  "870": "lique",
  "871": "lière",
  "872": "lk",
  "873": "ll",
  "874": "lla",
  "875": "lle",
  "876": "llent",
  "877": "lles",
  "878": "lli",
  "879": "llo",
  "880": "lls",
  "881": "lly",
  "882": "llé",
  "883": "lm",
  "884": "ln",
  "885": "lne",
  "886": "lo",
  "887": "lon",
  "888": "lor",
  "889": "lot",
  "890": "lou",
  "891": "lp",
  "892": "lq",
  "893": "lr",
  "894": "ls",
  "895": "lt",
  "896": "lu",
  "897": "lustardais",
  "898": "lv",
  "899": "lw",
  "900": "lx",
  "901": "ly",
  "902": "lyv",
  "903": "lz",
  "904": "là",
  "905": "lâ",
  "906": "lât",
  "907": "lç",
  "908": "lè",
  "909": "lèr",
  "910": "lé",
  "911": "lée",
  "912": "lés",
  "913": "lê",
  "914": "lî",
  "915": "lï",
  "916": "lô",
  "917": "lû",
  "918": "lœ",
  "919": "m",
  "920": "m'",
  "921": "m-",
  "922": "ma",
  "923": "mai",
  "924": "maki",
  "925": "man",
  "926": "mar",
  "927": "mb",
  "928": "mc",
  "929": "md",
  "930": "me",
  "931": "ment",
  "932": "mera",
  "933": "mes",
  "934": "mf",
  "935": "mh",
  "936": "mi",
  "937": "mistes",
  "938": "ml",
  "939": "mm",
  "940": "mma",
  "941": "mme",
  "942": "mn",
  "943": "mo",
  "944": "mono",
  "945": "monos",
  "946": "mor",
  "947": "mordexin",
  "948": "mou",
  "949": "mp",
  "950": "mps",
  "951": "mpt",
  "952": "mr",
  "953": "ms",
  "954": "mt",
  "955": "mu",
  "956": "my",
  "957": "mz",
  "958": "mâ",
  "959": "mæ",
  "960": "mç",
  "961": "mè",
  "962": "mé",
  "963": "mê",
  "964": "mî",
  "965": "mô",
  "966": "mû",
  "967": "mœ",
  "968": "n",
  "969": "n'",
  "970": "n-",
  "971": "na",
  "972": "nable",
  "973": "nai",
  "974": "nali",
  "975": "nalisées",
  "976": "nb",
  "977": "nc",
  "978": "nch",
  "979": "ncq",
  "980": "ncs",
  "981": "nd",
  "982": "nde",
  "983": "ndo",
  "984": "nds",
  "985": "ne",
  "986": "nel",
  "987": "nera",
  "988": "nes",
  "989": "net",
  "990": "nf",
  "991": "ng",
  "992": "nga",
  "993": "nge",
  "994": "ngr",
  "995": "ngs",
  "996": "ngt",
  "997": "ngu",
  "998": "nh",
  "999": "ni",
  "1000": "nité",
  "1001": "nj",
  "1002": "nk",
  "1003": "nl",
  "1004": "nm",
  "1005": "nn",
  "1006": "nna",
  "1007": "nne",
  "1008": "nni",
  "1009": "no",
  "1010": "noe",
  "1011": "non",
  "1012": "not",
  "1013": "nou",
  "1014": "np",
  "1015": "nq",
  "1016": "nqu",
  "1017": "nr",
  "1018": "ns",
  "1019": "ns-",
  "1020": "nse",
  "1021": "nss",
  "1022": "nst",
  "1023": "nt",
  "1024": "nta",
  "1025": "nte",
  "1026": "ntes",
  "1027": "nti",
  "1028": "ntr",
  "1029": "nts",
  "1030": "nté",
  "1031": "nu",
  "1032": "nv",
  "1033": "nw",
  "1034": "nx",
  "1035": "ny",
  "1036": "nz",
  "1037": "ná",
  "1038": "nâ",
  "1039": "nç",
  "1040": "nè",
  "1041": "né",
  "1042": "nê",
  "1043": "nî",
  "1044": "nô",
  "1045": "nû",
  "1046": "nœ",
  "1047": "o",
  "1048": "o'",
  "1049": "o-",
  "1050": "oa",
  "1051": "oai",
  "1052": "ob",
  "1053": "obs",
  "1054": "obse",
  "1055": "obsessi",
  "1056": "obsessio",
  "1057": "oc",
  "1058": "od",
  "1059": "odé",
  "1060": "oe",
  "1061": "oeufs",
  "1062": "of",
  "1063": "off",
  "1064": "ofo",
  "1065": "ofor",
  "1066": "og",
  "1067": "ogn",
  "1068": "oh",
  "1069": "oi",
  "1070": "oie",
  "1071": "oin",
  "1072": "ois",
  "1073": "oj",
  "1074": "ok",
  "1075": "ol",
  "1076": "om",
  "1077": "on",
  "1078": "onal",
  "1079": "onalisée",
  "1080": "onalisés",
  "1081": "onc",
  "1082": "ond",
  "1083": "onds",
  "1084": "ong",
  "1085": "onh",
  "1086": "onn",
  "1087": "onq",
  "1088": "ons",
  "1089": "onst",
  "1090": "onsti",
  "1091": "ont",
  "1092": "oo",
  "1093": "oot",
  "1094": "ooz",
  "1095": "op",
  "1096": "opompe",
  "1097": "opp",
  "1098": "oq",
  "1099": "oqu",
  "1100": "or",
  "1101": "orm",
  "1102": "orphe",
  "1103": "os",
  "1104": "ose",
  "1105": "ot",
  "1106": "ots",
  "1107": "ott",
  "1108": "ou",
  "1109": "oua",
  "1110": "oue",
  "1111": "ouf",
  "1112": "oug",
  "1113": "ouh",
  "1114": "oui",
  "1115": "ouil",
  "1116": "oul",
  "1117": "oup",
  "1118": "our",
  "1119": "ous",
  "1120": "out",
  "1121": "oux",
  "1122": "ov",
  "1123": "ow",
  "1124": "ows",
  "1125": "ox",
  "1126": "oy",
  "1127": "oz",
  "1128": "oç",
  "1129": "oè",
  "1130": "oé",
  "1131": "oê",
  "1132": "oë",
  "1133": "oî",
  "1134": "oï",
  "1135": "oô",
  "1136": "où",
  "1137": "oû",
  "1138": "oûl",
  "1139": "oût",
  "1140": "oûts",
  "1141": "p",
  "1142": "p'",
  "1143": "p-",
  "1144": "pa",
  "1145": "pai",
  "1146": "pandiculer",
  "1147": "panog",
  "1148": "pantet",
  "1149": "pb",
  "1150": "pc",
  "1151": "pd",
  "1152": "pe",
  "1153": "pea",
  "1154": "pei",
  "1155": "pel",
  "1156": "pent",
  "1157": "per",
  "1158": "pernaisien",
  "1159": "pes",
  "1160": "pez",
  "1161": "pf",
  "1162": "pff",
  "1163": "pg",
  "1164": "ph",
  "1165": "phe",
  "1166": "pi",
  "1167": "pil",
  "1168": "pin",
  "1169": "piquebœuf",
  "1170": "pl",
  "1171": "ple",
  "1172": "plébis",
  "1173": "pm",
  "1174": "pn",
  "1175": "po",
  "1176": "pogro",
  "1177": "poi",
  "1178": "pol",
  "1179": "polyg",
  "1180": "pou",
  "1181": "pp",
  "1182": "ppa",
  "1183": "ppe",
  "1184": "ppes",
  "1185": "pr",
  "1186": "pré",
  "1187": "préc",
  "1188": "ps",
  "1189": "psych",
  "1190": "pt",
  "1191": "ptique",
  "1192": "pts",
  "1193": "pu",
  "1194": "put",
  "1195": "puyverdan",
  "1196": "pv",
  "1197": "pw",
  "1198": "py",
  "1199": "pâ",
  "1200": "pât",
  "1201": "pæ",
  "1202": "pç",
  "1203": "pè",
  "1204": "pé",
  "1205": "pée",
  "1206": "péq",
  "1207": "pés",
  "1208": "pê",
  "1209": "pî",
  "1210": "pô",
  "1211": "pû",
  "1212": "q",
  "1213": "q'",
  "1214": "qa",
  "1215": "qara",
  "1216": "qe",
  "1217": "qf",
  "1218": "qh",
  "1219": "qi",
  "1220": "qo",
  "1221": "qq",
  "1222": "qs",
  "1223": "qu",
  "1224": "qu'",
  "1225": "qua",
  "1226": "que",
  "1227": "ques",
  "1228": "quet",
  "1229": "qui",
  "1230": "què",
  "1231": "quète",
  "1232": "qû",
  "1233": "r",
  "1234": "r'",
  "1235": "r-",
  "1236": "ra",
  "1237": "raf",
  "1238": "rah",
  "1239": "rai",
  "1240": "rais",
  "1241": "rait",
  "1242": "raja",
  "1243": "ran",
  "1244": "raphe",
  "1245": "ras",
  "1246": "rat",
  "1247": "rb",
  "1248": "rc",
  "1249": "rch",
  "1250": "rcher",
  "1251": "rd",
  "1252": "rda",
  "1253": "rde",
  "1254": "rds",
  "1255": "re",
  "1256": "rea",
  "1257": "reg",
  "1258": "rep",
  "1259": "res",
  "1260": "reu",
  "1261": "rez",
  "1262": "rf",
  "1263": "rg",
  "1264": "rgn",
  "1265": "rh",
  "1266": "rha",
  "1267": "rhe",
  "1268": "ri",
  "1269": "ride",
  "1270": "rie",
  "1271": "riez",
  "1272": "rine",
  "1273": "ris",
  "1274": "riv",
  "1275": "rj",
  "1276": "rk",
  "1277": "rl",
  "1278": "rm",
  "1279": "rma",
  "1280": "rme",
  "1281": "rmo",
  "1282": "rn",
  "1283": "rner",
  "1284": "ro",
  "1285": "roe",
  "1286": "rons",
  "1287": "ront",
  "1288": "rou",
  "1289": "rp",
  "1290": "rpr",
  "1291": "rps",
  "1292": "rq",
  "1293": "rr",
  "1294": "rra",
  "1295": "rre",
  "1296": "rs",
  "1297": "rsa",
  "1298": "rsc",
  "1299": "rt",
  "1300": "rts",
  "1301": "ru",
  "1302": "rus",
  "1303": "rv",
  "1304": "rw",
  "1305": "rx",
  "1306": "ry",
  "1307": "rz",
  "1308": "râ",
  "1309": "ræ",
  "1310": "rç",
  "1311": "rè",
  "1312": "ré",
  "1313": "rê",
  "1314": "rî",
  "1315": "rï",
  "1316": "rô",
  "1317": "rû",
  "1318": "rœ",
  "1319": "s",
  "1320": "s'",
  "1321": "s-",
  "1322": "s-b",
  "1323": "s-d",
  "1324": "s-p",
  "1325": "sa",
  "1326": "sai",
  "1327": "san",
  "1328": "sao",
  "1329": "sar",
  "1330": "sas",
  "1331": "sass",
  "1332": "sb",
  "1333": "sc",
  "1334": "sca",
  "1335": "sce",
  "1336": "sch",
  "1337": "sci",
  "1338": "sd",
  "1339": "se",
  "1340": "se-",
  "1341": "seb",
  "1342": "sei",
  "1343": "sel",
  "1344": "sent",
  "1345": "ser",
  "1346": "ses",
  "1347": "set",
  "1348": "seu",
  "1349": "sez",
  "1350": "sf",
  "1351": "sg",
  "1352": "sgu",
  "1353": "sh",
  "1354": "sha",
  "1355": "si",
  "1356": "sier",
  "1357": "sin",
  "1358": "sisée",
  "1359": "sisées",
  "1360": "sj",
  "1361": "sk",
  "1362": "sl",
  "1363": "sm",
  "1364": "sn",
  "1365": "so",
  "1366": "son",
  "1367": "sou",
  "1368": "sp",
  "1369": "sq",
  "1370": "sr",
  "1371": "ss",
  "1372": "ssa",
  "1373": "sse",
  "1374": "sses",
  "1375": "ssi",
  "1376": "ssio",
  "1377": "sss",
  "1378": "st",
  "1379": "sthan",
  "1380": "sti",
  "1381": "striges",
  "1382": "sts",
  "1383": "stu",
  "1384": "stér",
  "1385": "su",
  "1386": "suburb",
  "1387": "sur",
  "1388": "surma",
  "1389": "sv",
  "1390": "sw",
  "1391": "sy",
  "1392": "sz",
  "1393": "sá",
  "1394": "sâ",
  "1395": "sât",
  "1396": "sæ",
  "1397": "sç",
  "1398": "sè",
  "1399": "sé",
  "1400": "sée",
  "1401": "sélestadien",
  "1402": "sélé",
  "1403": "sés",
  "1404": "sî",
  "1405": "sû",
  "1406": "sœ",
  "1407": "t",
  "1408": "t'",
  "1409": "t-",
  "1410": "t-f",
  "1411": "ta",
  "1412": "tables",
  "1413": "tai",
  "1414": "tais",
  "1415": "tait",
  "1416": "tan",
  "1417": "tant",
  "1418": "tao",
  "1419": "tas",
  "1420": "tb",
  "1421": "tc",
  "1422": "td",
  "1423": "te",
  "1424": "te-",
  "1425": "tei",
  "1426": "ten",
  "1427": "tent",
  "1428": "ter",
  "1429": "tes",
  "1430": "teurs",
  "1431": "tez",
  "1432": "tf",
  "1433": "tg",
  "1434": "th",
  "1435": "the",
  "1436": "ths",
  "1437": "ti",
  "1438": "tier",
  "1439": "tiers",
  "1440": "til",
  "1441": "tin",
  "1442": "tiom",
  "1443": "tit",
  "1444": "titu",
  "1445": "tiè",
  "1446": "tj",
  "1447": "tk",
  "1448": "tl",
  "1449": "tm",
  "1450": "tn",
  "1451": "tno",
  "1452": "to",
  "1453": "tof",
  "1454": "tons",
  "1455": "tou",
  "1456": "tp",
  "1457": "tq",
  "1458": "tr",
  "1459": "tre",
  "1460": "trep",
  "1461": "ts",
  "1462": "ts-",
  "1463": "ts-f",
  "1464": "tt",
  "1465": "tta",
  "1466": "tte",
  "1467": "tts",
  "1468": "tu",
  "1469": "tue",
  "1470": "tuer",
  "1471": "tuées",
  "1472": "tv",
  "1473": "tw",
  "1474": "tx",
  "1475": "ty",
  "1476": "tz",
  "1477": "tá",
  "1478": "tâ",
  "1479": "tât",
  "1480": "tæ",
  "1481": "tè",
  "1482": "tèr",
  "1483": "té",
  "1484": "tér",
  "1485": "tê",
  "1486": "tî",
  "1487": "tô",
  "1488": "tû",
  "1489": "tœ",
  "1490": "u",
  "1491": "u'",
  "1492": "u-",
  "1493": "ua",
  "1494": "uah",
  "1495": "uai",
  "1496": "uas",
  "1497": "uay",
  "1498": "ub",
  "1499": "ubs",
  "1500": "uc",
  "1501": "uch",
  "1502": "ud",
  "1503": "uds",
  "1504": "ue",
  "1505": "uem",
  "1506": "uen",
  "1507": "uent",
  "1508": "uer",
  "1509": "ues",
  "1510": "uet",
  "1511": "uez",
  "1512": "uf",
  "1513": "uff",
  "1514": "ufs",
  "1515": "ug",
  "1516": "ugad",
  "1517": "uge",
  "1518": "ugn",
  "1519": "ugne",
  "1520": "ugs",
  "1521": "ugu",
  "1522": "uh",
  "1523": "uha",
  "1524": "uhe",
  "1525": "uhs",
  "1526": "ui",
  "1527": "uic",
  "1528": "uiez",
  "1529": "uil",
  "1530": "uin",
  "1531": "uis",
  "1532": "uj",
  "1533": "uje",
  "1534": "uk",
  "1535": "ul",
  "1536": "ula",
  "1537": "ule",
  "1538": "ull",
  "1539": "uls",
  "1540": "ult",
  "1541": "ulx",
  "1542": "um",
  "1543": "ume",
  "1544": "umes",
  "1545": "un",
  "1546": "ung",
  "1547": "uns",
  "1548": "unt",
  "1549": "uo",
  "1550": "up",
  "1551": "upa",
  "1552": "upi",
  "1553": "upp",
  "1554": "ups",
  "1555": "uq",
  "1556": "uqu",
  "1557": "ur",
  "1558": "ura",
  "1559": "urd",
  "1560": "ure",
  "1561": "ures",
  "1562": "urr",
  "1563": "urs",
  "1564": "urt",
  "1565": "us",
  "1566": "us-",
  "1567": "use",
  "1568": "usn",
  "1569": "uss",
  "1570": "usufru",
  "1571": "ut",
  "1572": "ut-",
  "1573": "uta",
  "1574": "ute",
  "1575": "uto",
  "1576": "uts",
  "1577": "utt",
  "1578": "uu",
  "1579": "uv",
  "1580": "uvr",
  "1581": "uw",
  "1582": "ux",
  "1583": "ux-",
  "1584": "uy",
  "1585": "uz",
  "1586": "uâ",
  "1587": "uât",
  "1588": "uç",
  "1589": "uè",
  "1590": "uèr",
  "1591": "uètent",
  "1592": "uètes",
  "1593": "ué",
  "1594": "uée",
  "1595": "ués",
  "1596": "uê",
  "1597": "uë",
  "1598": "uî",
  "1599": "uï",
  "1600": "v",
  "1601": "v'",
  "1602": "va",
  "1603": "vai",
  "1604": "vario",
  "1605": "vc",
  "1606": "ve",
  "1607": "vel",
  "1608": "ven",
  "1609": "venaissin",
  "1610": "vent",
  "1611": "ver",
  "1612": "verge",
  "1613": "verm",
  "1614": "vermic",
  "1615": "vert",
  "1616": "vertug",
  "1617": "ves",
  "1618": "veu",
  "1619": "vi",
  "1620": "vie",
  "1621": "vin",
  "1622": "vk",
  "1623": "vl",
  "1624": "vn",
  "1625": "vo",
  "1626": "vou",
  "1627": "vr",
  "1628": "vre",
  "1629": "vs",
  "1630": "vu",
  "1631": "vy",
  "1632": "vâ",
  "1633": "vè",
  "1634": "vé",
  "1635": "vê",
  "1636": "vî",
  "1637": "vô",
  "1638": "vû",
  "1639": "vœ",
  "1640": "w",
  "1641": "w-",
  "1642": "wa",
  "1643": "wb",
  "1644": "wc",
  "1645": "wd",
  "1646": "we",
  "1647": "wg",
  "1648": "wh",
  "1649": "wi",
  "1650": "wk",
  "1651": "wl",
  "1652": "wn",
  "1653": "wo",
  "1654": "wr",
  "1655": "ws",
  "1656": "wt",
  "1657": "wu",
  "1658": "ww",
  "1659": "wy",
  "1660": "wè",
  "1661": "wé",
  "1662": "x",
  "1663": "x-",
  "1664": "x-r",
  "1665": "xa",
  "1666": "xc",
  "1667": "xd",
  "1668": "xe",
  "1669": "xf",
  "1670": "xh",
  "1671": "xi",
  "1672": "xm",
  "1673": "xo",
  "1674": "xp",
  "1675": "xq",
  "1676": "xqu",
  "1677": "xs",
  "1678": "xt",
  "1679": "xu",
  "1680": "xv",
  "1681": "xw",
  "1682": "xx",
  "1683": "xy",
  "1684": "xâ",
  "1685": "xè",
  "1686": "xé",
  "1687": "y",
  "1688": "y'",
  "1689": "y-",
  "1690": "ya",
  "1691": "yai",
  "1692": "yb",
  "1693": "yc",
  "1694": "ych",
  "1695": "yd",
  "1696": "ye",
  "1697": "yen",
  "1698": "yer",
  "1699": "yes",
  "1700": "yf",
  "1701": "yg",
  "1702": "yh",
  "1703": "yi",
  "1704": "yk",
  "1705": "yl",
  "1706": "ym",
  "1707": "yme",
  "1708": "yms",
  "1709": "yn",
  "1710": "yo",
  "1711": "youtzer",
  "1712": "yp",
  "1713": "yq",
  "1714": "yr",
  "1715": "ys",
  "1716": "yt",
  "1717": "yu",
  "1718": "yv",
  "1719": "yve",
  "1720": "yw",
  "1721": "yx",
  "1722": "yz",
  "1723": "yâ",
  "1724": "yç",
  "1725": "yè",
  "1726": "yé",
  "1727": "yú",
  "1728": "z",
  "1729": "z'",
  "1730": "z-",
  "1731": "za",
  "1732": "zb",
  "1733": "zd",
  "1734": "ze",
  "1735": "zg",
  "1736": "zh",
  "1737": "zi",
  "1738": "zinzonner",
  "1739": "zk",
  "1740": "zl",
  "1741": "zn",
  "1742": "zo",
  "1743": "zou",
  "1744": "zq",
  "1745": "zs",
  "1746": "zt",
  "1747": "zu",
  "1748": "zv",
  "1749": "zw",
  "1750": "zy",
  "1751": "zz",
  "1752": "zzz",
  "1753": "zzzz",
  "1754": "zzzzz",
  "1755": "zzzzzz",
  "1756": "zâ",
  "1757": "zè",
  "1758": "zé",
  "1759": "zœ",
  "1760": "ß",
  "1761": "à",
  "1762": "à-",
  "1763": "às",
  "1764": "á",
  "1765": "á'",
  "1766": "áh",
  "1767": "â",
  "1768": "â'",
  "1769": "âa",
  "1770": "âb",
  "1771": "âc",
  "1772": "âd",
  "1773": "âf",
  "1774": "âg",
  "1775": "âh",
  "1776": "âi",
  "1777": "âl",
  "1778": "âm",
  "1779": "ân",
  "1780": "âp",
  "1781": "âq",
  "1782": "âr",
  "1783": "âs",
  "1784": "ât",
  "1785": "âts",
  "1786": "ây",
  "1787": "âç",
  "1788": "ã",
  "1789": "ä",
  "1790": "än",
  "1791": "å",
  "1792": "æ",
  "1793": "æa",
  "1794": "æb",
  "1795": "æc",
  "1796": "æd",
  "1797": "æe",
  "1798": "æf",
  "1799": "æm",
  "1800": "æn",
  "1801": "æne",
  "1802": "æo",
  "1803": "æp",
  "1804": "ær",
  "1805": "æs",
  "1806": "æt",
  "1807": "ç",
  "1808": "ç'",
  "1809": "ça",
  "1810": "ço",
  "1811": "çt",
  "1812": "çu",
  "1813": "çâ",
  "1814": "çû",
  "1815": "è",
  "1816": "èb",
  "1817": "èc",
  "1818": "èch",
  "1819": "èd",
  "1820": "èf",
  "1821": "èg",
  "1822": "ègue",
  "1823": "èj",
  "1824": "èk",
  "1825": "èl",
  "1826": "èm",
  "1827": "èn",
  "1828": "èp",
  "1829": "èq",
  "1830": "èr",
  "1831": "ère",
  "1832": "ères",
  "1833": "ès",
  "1834": "èt",
  "1835": "ète",
  "1836": "èv",
  "1837": "èy",
  "1838": "èz",
  "1839": "èï",
  "1840": "é",
  "1841": "é-",
  "1842": "éa",
  "1843": "éai",
  "1844": "éb",
  "1845": "éc",
  "1846": "éco",
  "1847": "éd",
  "1848": "ée",
  "1849": "éer",
  "1850": "ées",
  "1851": "éf",
  "1852": "ég",
  "1853": "ége",
  "1854": "éh",
  "1855": "éi",
  "1856": "éj",
  "1857": "ék",
  "1858": "él",
  "1859": "ém",
  "1860": "éma",
  "1861": "én",
  "1862": "énan",
  "1863": "éniste",
  "1864": "éo",
  "1865": "ép",
  "1866": "éq",
  "1867": "équ",
  "1868": "ér",
  "1869": "és",
  "1870": "ét",
  "1871": "éu",
  "1872": "év",
  "1873": "éw",
  "1874": "éy",
  "1875": "éz",
  "1876": "éâ",
  "1877": "éç",
  "1878": "éè",
  "1879": "éé",
  "1880": "éî",
  "1881": "éï",
  "1882": "éœ",
  "1883": "ê",
  "1884": "êc",
  "1885": "êg",
  "1886": "êl",
  "1887": "êm",
  "1888": "ên",
  "1889": "êp",
  "1890": "êq",
  "1891": "êt",
  "1892": "êts",
  "1893": "êv",
  "1894": "ë",
  "1895": "ëc",
  "1896": "ëd",
  "1897": "ëf",
  "1898": "ël",
  "1899": "ëm",
  "1900": "ën",
  "1901": "ër",
  "1902": "ës",
  "1903": "ët",
  "1904": "ëv",
  "1905": "ì",
  "1906": "í",
  "1907": "íe",
  "1908": "ín",
  "1909": "î",
  "1910": "îc",
  "1911": "îd",
  "1912": "îe",
  "1913": "îh",
  "1914": "îl",
  "1915": "îm",
  "1916": "în",
  "1917": "îr",
  "1918": "îs",
  "1919": "ît",
  "1920": "ï",
  "1921": "ï-",
  "1922": "ïa",
  "1923": "ïb",
  "1924": "ïc",
  "1925": "ïd",
  "1926": "ïe",
  "1927": "ïes",
  "1928": "ïf",
  "1929": "ïg",
  "1930": "ïi",
  "1931": "ïk",
  "1932": "ïl",
  "1933": "ïm",
  "1934": "ïn",
  "1935": "ïo",
  "1936": "ïq",
  "1937": "ïr",
  "1938": "ïs",
  "1939": "ïss",
  "1940": "ït",
  "1941": "ïtes",
  "1942": "ïu",
  "1943": "ïv",
  "1944": "ïw",
  "1945": "ïz",
  "1946": "ïâ",
  "1947": "ïè",
  "1948": "ïé",
  "1949": "ð",
  "1950": "ñ",
  "1951": "ña",
  "1952": "ño",
  "1953": "ò",
  "1954": "ó",
  "1955": "ói",
  "1956": "ón",
  "1957": "ór",
  "1958": "ót",
  "1959": "ô",
  "1960": "ôc",
  "1961": "ôd",
  "1962": "ôf",
  "1963": "ôg",
  "1964": "ôi",
  "1965": "ôl",
  "1966": "ôm",
  "1967": "ôn",
  "1968": "ôo",
  "1969": "ôp",
  "1970": "ôq",
  "1971": "ôs",
  "1972": "ôt",
  "1973": "ôv",
  "1974": "ôz",
  "1975": "õ",
  "1976": "ö",
  "1977": "öd",
  "1978": "öh",
  "1979": "ök",
  "1980": "öl",
  "1981": "öm",
  "1982": "öo",
  "1983": "öt",
  "1984": "ø",
  "1985": "ù",
  "1986": "ú",
  "1987": "ún",
  "1988": "û",
  "1989": "ûc",
  "1990": "ûd",
  "1991": "ûe",
  "1992": "ûl",
  "1993": "ûls",
  "1994": "ûm",
  "1995": "ûn",
  "1996": "ûr",
  "1997": "ûs",
  "1998": "ût",
  "1999": "ûta",
  "2000": "ûts",
  "2001": "ü",
  "2002": "üa",
  "2003": "üd",
  "2004": "üe",
  "2005": "üi",
  "2006": "üm",
  "2007": "üs",
  "2008": "üt",
  "2009": "ý",
  "2010": "þ",
  "2011": "ÿ",
  "2012": "ÿe",
  "2013": "ÿr",
  "2014": "œ",
  "2015": "œa",
  "2016": "œb",
  "2017": "œc",
  "2018": "œcistes",
  "2019": "œd",
  "2020": "œe",
  "2021": "œi",
  "2022": "œil",
  "2023": "œl",
  "2024": "œm",
  "2025": "œn",
  "2026": "œo",
  "2027": "œq",
  "2028": "œr",
  "2029": "œs",
  "2030": "œt",
  "2031": "œu",
  "2032": "œufs"
 },
 "pad_idx": 0,
 "unk_idx": 1
}